unsigned char smartiot_model_tflite[] = {
  0x1c, 0x00, 0x00, 0x00, 0x54, 0x46, 0x4c, 0x33, 0x14, 0x00, 0x20, 0x00,
  0x1c, 0x00, 0x18, 0x00, 0x14, 0x00, 0x10, 0x00, 0x0c, 0x00, 0x00, 0x00,
  0x08, 0x00, 0x04, 0x00, 0x14, 0x00, 0x00, 0x00, 0x1c, 0x00, 0x00, 0x00,
  0x98, 0x00, 0x00, 0x00, 0xf0, 0x00, 0x00, 0x00, 0x28, 0x06, 0x00, 0x00,
  0x38, 0x06, 0x00, 0x00, 0x80, 0x0c, 0x00, 0x00, 0x03, 0x00, 0x00, 0x00,
  0x01, 0x00, 0x00, 0x00, 0x10, 0x00, 0x00, 0x00, 0x00, 0x00, 0x0a, 0x00,
  0x10, 0x00, 0x0c, 0x00, 0x08, 0x00, 0x04, 0x00, 0x0a, 0x00, 0x00, 0x00,
  0x0c, 0x00, 0x00, 0x00, 0x1c, 0x00, 0x00, 0x00, 0x3c, 0x00, 0x00, 0x00,
  0x0f, 0x00, 0x00, 0x00, 0x73, 0x65, 0x72, 0x76, 0x69, 0x6e, 0x67, 0x5f,
  0x64, 0x65, 0x66, 0x61, 0x75, 0x6c, 0x74, 0x00, 0x01, 0x00, 0x00, 0x00,
  0x04, 0x00, 0x00, 0x00, 0x90, 0xff, 0xff, 0xff, 0x0c, 0x00, 0x00, 0x00,
  0x04, 0x00, 0x00, 0x00, 0x08, 0x00, 0x00, 0x00, 0x6f, 0x75, 0x74, 0x70,
  0x75, 0x74, 0x5f, 0x30, 0x00, 0x00, 0x00, 0x00, 0x01, 0x00, 0x00, 0x00,
  0x04, 0x00, 0x00, 0x00, 0xa6, 0xfb, 0xff, 0xff, 0x04, 0x00, 0x00, 0x00,
  0x0c, 0x00, 0x00, 0x00, 0x6b, 0x65, 0x72, 0x61, 0x73, 0x5f, 0x74, 0x65,
  0x6e, 0x73, 0x6f, 0x72, 0x00, 0x00, 0x00, 0x00, 0x02, 0x00, 0x00, 0x00,
  0x34, 0x00, 0x00, 0x00, 0x04, 0x00, 0x00, 0x00, 0xdc, 0xff, 0xff, 0xff,
  0x0f, 0x00, 0x00, 0x00, 0x04, 0x00, 0x00, 0x00, 0x13, 0x00, 0x00, 0x00,
  0x43, 0x4f, 0x4e, 0x56, 0x45, 0x52, 0x53, 0x49, 0x4f, 0x4e, 0x5f, 0x4d,
  0x45, 0x54, 0x41, 0x44, 0x41, 0x54, 0x41, 0x00, 0x08, 0x00, 0x0c, 0x00,
  0x08, 0x00, 0x04, 0x00, 0x08, 0x00, 0x00, 0x00, 0x0e, 0x00, 0x00, 0x00,
  0x04, 0x00, 0x00, 0x00, 0x13, 0x00, 0x00, 0x00, 0x6d, 0x69, 0x6e, 0x5f,
  0x72, 0x75, 0x6e, 0x74, 0x69, 0x6d, 0x65, 0x5f, 0x76, 0x65, 0x72, 0x73,
  0x69, 0x6f, 0x6e, 0x00, 0x10, 0x00, 0x00, 0x00, 0x34, 0x05, 0x00, 0x00,
  0x2c, 0x05, 0x00, 0x00, 0xdc, 0x03, 0x00, 0x00, 0x44, 0x03, 0x00, 0x00,
  0xb4, 0x02, 0x00, 0x00, 0x7c, 0x02, 0x00, 0x00, 0x4c, 0x02, 0x00, 0x00,
  0x2c, 0x02, 0x00, 0x00, 0xfc, 0x01, 0x00, 0x00, 0xac, 0x00, 0x00, 0x00,
  0xa4, 0x00, 0x00, 0x00, 0x9c, 0x00, 0x00, 0x00, 0x94, 0x00, 0x00, 0x00,
  0x8c, 0x00, 0x00, 0x00, 0x6c, 0x00, 0x00, 0x00, 0x04, 0x00, 0x00, 0x00,
  0x62, 0xfc, 0xff, 0xff, 0x04, 0x00, 0x00, 0x00, 0x58, 0x00, 0x00, 0x00,
  0x0c, 0x00, 0x00, 0x00, 0x08, 0x00, 0x0e, 0x00, 0x08, 0x00, 0x04, 0x00,
  0x08, 0x00, 0x00, 0x00, 0x10, 0x00, 0x00, 0x00, 0x28, 0x00, 0x00, 0x00,
  0x00, 0x00, 0x06, 0x00, 0x08, 0x00, 0x04, 0x00, 0x06, 0x00, 0x00, 0x00,
  0x04, 0x00, 0x00, 0x00, 0x01, 0x00, 0x00, 0x00, 0xea, 0x03, 0x00, 0x00,
  0x00, 0x00, 0x0a, 0x00, 0x10, 0x00, 0x0c, 0x00, 0x08, 0x00, 0x04, 0x00,
  0x0a, 0x00, 0x00, 0x00, 0x01, 0x00, 0x00, 0x00, 0x02, 0x00, 0x00, 0x00,
  0x04, 0x00, 0x00, 0x00, 0x06, 0x00, 0x00, 0x00, 0x32, 0x2e, 0x31, 0x36,
  0x2e, 0x32, 0x00, 0x00, 0xc6, 0xfc, 0xff, 0xff, 0x04, 0x00, 0x00, 0x00,
  0x10, 0x00, 0x00, 0x00, 0x31, 0x2e, 0x35, 0x2e, 0x30, 0x00, 0x00, 0x00,
  0x00, 0x00, 0x00, 0x00, 0x00, 0x00, 0x00, 0x00, 0x60, 0xf5, 0xff, 0xff,
  0x64, 0xf5, 0xff, 0xff, 0x68, 0xf5, 0xff, 0xff, 0x6c, 0xf5, 0xff, 0xff,
  0xf2, 0xfc, 0xff, 0xff, 0x04, 0x00, 0x00, 0x00, 0x40, 0x01, 0x00, 0x00,
  0xd9, 0x16, 0x19, 0x3f, 0xc4, 0x87, 0xbb, 0x3e, 0x9d, 0xee, 0xe5, 0xbe,
  0xa6, 0x6c, 0x8f, 0x3e, 0x85, 0x55, 0xa9, 0x3e, 0x3d, 0xdb, 0xb3, 0x3e,
  0x44, 0xee, 0x9f, 0xbe, 0x40, 0x3b, 0x03, 0xbf, 0x1c, 0x4b, 0xb7, 0x3c,
  0xc8, 0xf1, 0xd9, 0x3d, 0x4b, 0x96, 0x56, 0xbe, 0xe5, 0x21, 0x00, 0x3f,
  0x84, 0x9d, 0xe7, 0xbe, 0xaa, 0xe1, 0xae, 0xbe, 0x35, 0xc2, 0xbd, 0x3c,
  0xd5, 0x7d, 0xfb, 0x3e, 0x73, 0x0d, 0xa3, 0xbe, 0xe8, 0xd8, 0x8b, 0x3e,
  0xc5, 0x84, 0x01, 0x3f, 0x5b, 0xbe, 0xa1, 0x3e, 0xd2, 0x11, 0xc5, 0x3e,
  0x47, 0x43, 0xd2, 0xbe, 0x08, 0x8d, 0x08, 0x3e, 0xc8, 0x09, 0x1a, 0x3f,
  0xa6, 0x76, 0x87, 0x3e, 0x9c, 0x39, 0x2b, 0x3e, 0x5e, 0x15, 0xb3, 0xbd,
  0xc4, 0x42, 0xbe, 0x3e, 0xcf, 0x06, 0x58, 0x3e, 0xed, 0xd2, 0x80, 0xbe,
  0x50, 0x7a, 0x8e, 0xbc, 0xb0, 0xca, 0x03, 0x3f, 0xae, 0x1e, 0xf8, 0x3d,
  0x22, 0xfc, 0xb5, 0x3e, 0xe7, 0x68, 0xbf, 0x3e, 0xd7, 0x2b, 0x17, 0xbe,
  0x85, 0x3b, 0x71, 0x3d, 0xa8, 0xcf, 0xb0, 0xbe, 0xc0, 0x7d, 0xd2, 0xbe,
  0x97, 0xbc, 0xc8, 0xbe, 0xdc, 0x69, 0x65, 0x3e, 0xc5, 0xce, 0xa4, 0xbd,
  0x5e, 0x3e, 0x0b, 0xbe, 0x9b, 0x45, 0xfa, 0x3e, 0xe0, 0x57, 0xcf, 0xbd,
  0x73, 0xb9, 0x28, 0x3e, 0xd6, 0x7a, 0xeb, 0x3e, 0x1f, 0x43, 0xf4, 0xbe,
  0x08, 0x06, 0xfe, 0x3e, 0x53, 0x27, 0x93, 0xbd, 0x44, 0x5e, 0x86, 0x3e,
  0x5a, 0x3b, 0x04, 0x3f, 0xb0, 0x1e, 0x85, 0xbe, 0x3c, 0x66, 0xd3, 0xbe,
  0x7d, 0xad, 0xd5, 0x3e, 0x4e, 0x8a, 0x9b, 0x3e, 0xe7, 0x9b, 0x1a, 0x3e,
  0xab, 0xd1, 0x3f, 0xbe, 0x70, 0x79, 0x22, 0x3f, 0xa2, 0x3c, 0x1b, 0x3f,
  0xa8, 0x79, 0xc3, 0x3e, 0x23, 0xc4, 0x95, 0x3e, 0x99, 0x0c, 0x0e, 0xbf,
  0xe1, 0x41, 0xb0, 0x3d, 0x21, 0x45, 0xe3, 0x3e, 0xe0, 0xb7, 0xa7, 0x3e,
  0x26, 0x74, 0xeb, 0xbc, 0xd3, 0x8f, 0x26, 0x3d, 0x2d, 0x80, 0x6f, 0xbe,
  0x5c, 0x90, 0x0f, 0x3f, 0x19, 0xe5, 0x1f, 0x3f, 0x50, 0x28, 0xeb, 0xbe,
  0x93, 0xbf, 0x17, 0x3e, 0xb1, 0x6a, 0xe7, 0xbe, 0x02, 0xeb, 0x8d, 0xbe,
  0xcc, 0xb5, 0xbc, 0xbe, 0x99, 0x34, 0x06, 0x3f, 0xa5, 0xf6, 0x4b, 0xbe,
  0x9f, 0x87, 0x0a, 0x3f, 0x8e, 0xa3, 0xd6, 0x3e, 0x3e, 0xfe, 0xff, 0xff,
  0x04, 0x00, 0x00, 0x00, 0x20, 0x00, 0x00, 0x00, 0xab, 0x36, 0x41, 0x3d,
  0x07, 0xdf, 0x4e, 0x3c, 0x97, 0x77, 0x31, 0x3e, 0x0c, 0x23, 0x2b, 0x3e,
  0x58, 0xdc, 0x8c, 0xbc, 0x15, 0xc3, 0x37, 0x3d, 0x02, 0xd0, 0x90, 0xbc,
  0x7a, 0x33, 0xb3, 0xbd, 0x6a, 0xfe, 0xff, 0xff, 0x04, 0x00, 0x00, 0x00,
  0x10, 0x00, 0x00, 0x00, 0xcc, 0xa1, 0xf8, 0xbc, 0xe1, 0x8a, 0x28, 0x3e,
  0x41, 0x44, 0xe0, 0x3d, 0x20, 0x5e, 0x46, 0x3d, 0x86, 0xfe, 0xff, 0xff,
  0x04, 0x00, 0x00, 0x00, 0x20, 0x00, 0x00, 0x00, 0xcf, 0xf3, 0x09, 0x3e,
  0x54, 0x1f, 0xc1, 0xbd, 0xa7, 0x0d, 0xff, 0xbd, 0xa3, 0x3d, 0x6c, 0xbc,
  0xb6, 0x5f, 0x82, 0x3e, 0x80, 0xf7, 0x0f, 0xbd, 0x54, 0x20, 0x91, 0x3a,
  0x09, 0x94, 0xda, 0x3c, 0xb2, 0xfe, 0xff, 0xff, 0x04, 0x00, 0x00, 0x00,
  0x28, 0x00, 0x00, 0x00, 0x25, 0x3a, 0x16, 0x3c, 0x8a, 0x4e, 0x92, 0xbd,
  0x9a, 0xe4, 0x8e, 0x3d, 0x05, 0x93, 0x7a, 0x3d, 0x0b, 0x55, 0x02, 0xbe,
  0x40, 0x13, 0xd7, 0xbd, 0xea, 0x5c, 0x5c, 0xbc, 0xce, 0x80, 0x02, 0x3e,
  0x22, 0x5c, 0xf9, 0xbc, 0xe2, 0x52, 0xf9, 0xbc, 0xe6, 0xfe, 0xff, 0xff,
  0x04, 0x00, 0x00, 0x00, 0x80, 0x00, 0x00, 0x00, 0x22, 0x48, 0xd2, 0xbe,
  0xb7, 0xcc, 0x02, 0x3e, 0xb6, 0xce, 0xe3, 0x3d, 0xb1, 0xa3, 0x11, 0xbf,
  0xa2, 0xf1, 0x9b, 0x3e, 0xca, 0x6f, 0x83, 0x3e, 0xb3, 0x88, 0xa0, 0x3d,
  0xd7, 0xdf, 0x30, 0xbe, 0x95, 0x43, 0xfe, 0x3d, 0xdb, 0xf4, 0x8e, 0xbe,
  0x5a, 0xab, 0x1f, 0xbf, 0xc6, 0x9a, 0xd8, 0xbe, 0x6e, 0x16, 0x38, 0x3e,
  0x74, 0x6f, 0x96, 0x3c, 0x56, 0x8a, 0x33, 0xbe, 0x6a, 0x9d, 0x33, 0xbf,
  0xf2, 0x4c, 0xd5, 0x3e, 0x65, 0x70, 0x98, 0xbe, 0xbc, 0xbb, 0x9c, 0x3e,
  0xa7, 0x37, 0xbe, 0x3d, 0xdd, 0x02, 0x00, 0xbe, 0x52, 0xcb, 0x27, 0x3e,
  0xd3, 0xed, 0x58, 0xbd, 0xac, 0x47, 0xea, 0xbe, 0xc4, 0xdc, 0xf7, 0x3d,
  0x44, 0x7e, 0x8f, 0x3b, 0x67, 0x67, 0x1a, 0xbf, 0xc1, 0x16, 0x1d, 0xbf,
  0xfc, 0x41, 0x83, 0x3e, 0x3f, 0x73, 0x0d, 0xbf, 0x0a, 0xec, 0x19, 0x3e,
  0x5e, 0xcf, 0xf7, 0xbe, 0x72, 0xff, 0xff, 0xff, 0x04, 0x00, 0x00, 0x00,
  0x80, 0x00, 0x00, 0x00, 0x21, 0xab, 0x38, 0xbf, 0x02, 0xbf, 0x0b, 0x3d,
  0xdc, 0xac, 0x66, 0x3e, 0x42, 0x9a, 0x4e, 0x3f, 0x22, 0xf4, 0x05, 0x3f,
  0xbf, 0xbc, 0x1f, 0xbf, 0xed, 0x76, 0x00, 0xbf, 0xe2, 0x65, 0x20, 0x3f,
  0xf0, 0x62, 0x19, 0xbf, 0x5e, 0xef, 0x2f, 0xbf, 0xa6, 0x80, 0xaa, 0xbc,
  0xef, 0x1f, 0xab, 0x3e, 0x0f, 0x11, 0xdb, 0xbe, 0x74, 0x71, 0x03, 0x3e,
  0x93, 0xab, 0x83, 0x3e, 0x8e, 0x96, 0xd6, 0xbe, 0xda, 0x21, 0x16, 0xbf,
  0xbb, 0x10, 0x1f, 0xbc, 0x41, 0xc0, 0x4c, 0xbf, 0x80, 0x8b, 0x09, 0x3e,
  0x1d, 0xbe, 0x21, 0xbe, 0xa0, 0x3f, 0x23, 0xbf, 0x73, 0x65, 0x46, 0xbe,
  0x90, 0xed, 0x67, 0xbe, 0xb3, 0x34, 0x8b, 0x3e, 0x95, 0x85, 0x91, 0x3e,
  0xa8, 0xcf, 0x3f, 0xbd, 0xa5, 0x99, 0x67, 0x3e, 0x35, 0x7a, 0x5f, 0x3f,
  0x8f, 0x13, 0x87, 0xbe, 0x78, 0x2d, 0x84, 0x3d, 0x85, 0x41, 0x18, 0x3d,
  0x00, 0x00, 0x06, 0x00, 0x08, 0x00, 0x04, 0x00, 0x06, 0x00, 0x00, 0x00,
  0x04, 0x00, 0x00, 0x00, 0x40, 0x01, 0x00, 0x00, 0x2b, 0xd8, 0x14, 0x3e,
  0x45, 0xb0, 0x1a, 0xbe, 0x6e, 0x19, 0xc7, 0x3e, 0x3c, 0x7e, 0x4f, 0x3d,
  0xb7, 0x10, 0x35, 0xbe, 0x58, 0x78, 0x24, 0x3f, 0x50, 0xb2, 0xef, 0xbe,
  0xa7, 0xaa, 0xa9, 0x3d, 0x6a, 0xc6, 0xac, 0x3d, 0x17, 0x5c, 0x04, 0xbf,
  0x85, 0xc3, 0xdc, 0x3e, 0x3b, 0x2a, 0x29, 0x3e, 0x66, 0x36, 0xf9, 0xbe,
  0x3d, 0xf6, 0xbe, 0x3e, 0xc6, 0x90, 0x3b, 0x3e, 0x47, 0x25, 0xa1, 0x3e,
  0x49, 0x8d, 0xaa, 0xbe, 0x66, 0x74, 0xf0, 0x3c, 0xdf, 0x2a, 0x1e, 0x3f,
  0xe7, 0x91, 0xdb, 0x3e, 0x9b, 0x10, 0x82, 0xbe, 0xa8, 0xdb, 0x06, 0xbf,
  0xfc, 0xe6, 0x00, 0xbf, 0x4f, 0x95, 0x8f, 0x3e, 0xb9, 0xc5, 0xbc, 0xbe,
  0x14, 0x9f, 0x82, 0x3e, 0xd7, 0x1c, 0xad, 0xbd, 0xaa, 0xda, 0xda, 0x3e,
  0xbf, 0xbd, 0x01, 0xbf, 0xf4, 0x29, 0xbd, 0xbe, 0x48, 0x22, 0xf4, 0xbe,
  0xd6, 0x50, 0x76, 0xbe, 0xe8, 0xe3, 0xc5, 0xbe, 0xae, 0x30, 0x3e, 0xbe,
  0x69, 0xc6, 0xef, 0xbe, 0x11, 0x1d, 0x9f, 0x3e, 0x0b, 0x25, 0x14, 0xbe,
  0x50, 0x2a, 0x81, 0x3e, 0xcf, 0x7c, 0x44, 0xbd, 0xf9, 0x37, 0xa6, 0xbe,
  0x0c, 0x36, 0xce, 0xbd, 0x69, 0xed, 0x19, 0xbf, 0x45, 0xba, 0xc5, 0xbd,
  0xd1, 0x07, 0x8a, 0xbe, 0xf5, 0x73, 0xa6, 0xbe, 0x1d, 0xbb, 0xbc, 0x3d,
  0x97, 0xce, 0x25, 0x3e, 0xb3, 0x4f, 0x13, 0x3f, 0x53, 0x37, 0x0e, 0xbf,
  0xc1, 0xa1, 0x66, 0xbe, 0x16, 0xee, 0x4a, 0x3e, 0x94, 0x96, 0xf3, 0xbd,
  0x18, 0xed, 0x9c, 0x3e, 0x81, 0x70, 0xc4, 0x3d, 0x67, 0x7f, 0xdf, 0xbe,
  0x6b, 0x29, 0xa9, 0xbd, 0x8e, 0x88, 0x30, 0x3e, 0x7c, 0x5e, 0x13, 0xbd,
  0xd1, 0xa6, 0x2e, 0x3d, 0xe6, 0x19, 0xdb, 0xbe, 0x8a, 0xbb, 0xec, 0xbe,
  0x54, 0xe3, 0xde, 0x3e, 0xdb, 0x36, 0x53, 0xbe, 0xb5, 0xa7, 0xdd, 0x3e,
  0xc1, 0xc4, 0x65, 0xbe, 0x23, 0xbd, 0x20, 0xbd, 0xdf, 0x68, 0xf2, 0xbe,
  0xc8, 0x92, 0x16, 0x3e, 0xb4, 0xe3, 0xb2, 0xbe, 0x3f, 0x98, 0x70, 0xbe,
  0x64, 0xf4, 0xbf, 0xbc, 0xe3, 0x6e, 0xdb, 0x3e, 0xdb, 0xb6, 0x71, 0xbe,
  0x1a, 0x9b, 0xda, 0xbc, 0xe9, 0x47, 0x4a, 0xbe, 0x0c, 0x4d, 0x32, 0x3e,
  0xa3, 0xb5, 0x2b, 0x3e, 0x4b, 0x3f, 0x0e, 0xbd, 0xf9, 0x0d, 0x8b, 0xbe,
  0x3a, 0x29, 0x0b, 0x3f, 0xd0, 0xf9, 0xff, 0xff, 0xd4, 0xf9, 0xff, 0xff,
  0x0f, 0x00, 0x00, 0x00, 0x4d, 0x4c, 0x49, 0x52, 0x20, 0x43, 0x6f, 0x6e,
  0x76, 0x65, 0x72, 0x74, 0x65, 0x64, 0x2e, 0x00, 0x01, 0x00, 0x00, 0x00,
  0x14, 0x00, 0x00, 0x00, 0x00, 0x00, 0x0e, 0x00, 0x18, 0x00, 0x14, 0x00,
  0x10, 0x00, 0x0c, 0x00, 0x08, 0x00, 0x04, 0x00, 0x0e, 0x00, 0x00, 0x00,
  0x14, 0x00, 0x00, 0x00, 0x1c, 0x00, 0x00, 0x00, 0x20, 0x01, 0x00, 0x00,
  0x24, 0x01, 0x00, 0x00, 0x28, 0x01, 0x00, 0x00, 0x04, 0x00, 0x00, 0x00,
  0x6d, 0x61, 0x69, 0x6e, 0x00, 0x00, 0x00, 0x00, 0x04, 0x00, 0x00, 0x00,
  0xc8, 0x00, 0x00, 0x00, 0x80, 0x00, 0x00, 0x00, 0x38, 0x00, 0x00, 0x00,
  0x04, 0x00, 0x00, 0x00, 0x9a, 0xff, 0xff, 0xff, 0x10, 0x00, 0x00, 0x00,
  0x00, 0x00, 0x00, 0x08, 0x0c, 0x00, 0x00, 0x00, 0x10, 0x00, 0x00, 0x00,
  0x50, 0xfa, 0xff, 0xff, 0x01, 0x00, 0x00, 0x00, 0x0c, 0x00, 0x00, 0x00,
  0x03, 0x00, 0x00, 0x00, 0x0b, 0x00, 0x00, 0x00, 0x01, 0x00, 0x00, 0x00,
  0x04, 0x00, 0x00, 0x00, 0xca, 0xff, 0xff, 0xff, 0x10, 0x00, 0x00, 0x00,
  0x00, 0x00, 0x00, 0x08, 0x10, 0x00, 0x00, 0x00, 0x14, 0x00, 0x00, 0x00,
  0x76, 0xff, 0xff, 0xff, 0x00, 0x00, 0x00, 0x01, 0x01, 0x00, 0x00, 0x00,
  0x0b, 0x00, 0x00, 0x00, 0x03, 0x00, 0x00, 0x00, 0x0a, 0x00, 0x00, 0x00,
  0x02, 0x00, 0x00, 0x00, 0x05, 0x00, 0x00, 0x00, 0x00, 0x00, 0x0e, 0x00,
  0x14, 0x00, 0x00, 0x00, 0x10, 0x00, 0x0c, 0x00, 0x0b, 0x00, 0x04, 0x00,
  0x0e, 0x00, 0x00, 0x00, 0x10, 0x00, 0x00, 0x00, 0x00, 0x00, 0x00, 0x08,
  0x10, 0x00, 0x00, 0x00, 0x14, 0x00, 0x00, 0x00, 0xba, 0xff, 0xff, 0xff,
  0x00, 0x00, 0x00, 0x01, 0x01, 0x00, 0x00, 0x00, 0x0a, 0x00, 0x00, 0x00,
  0x03, 0x00, 0x00, 0x00, 0x09, 0x00, 0x00, 0x00, 0x03, 0x00, 0x00, 0x00,
  0x06, 0x00, 0x00, 0x00, 0x00, 0x00, 0x0e, 0x00, 0x16, 0x00, 0x00, 0x00,
  0x10, 0x00, 0x0c, 0x00, 0x0b, 0x00, 0x04, 0x00, 0x0e, 0x00, 0x00, 0x00,
  0x18, 0x00, 0x00, 0x00, 0x00, 0x00, 0x00, 0x08, 0x18, 0x00, 0x00, 0x00,
  0x1c, 0x00, 0x00, 0x00, 0x00, 0x00, 0x06, 0x00, 0x08, 0x00, 0x07, 0x00,
  0x06, 0x00, 0x00, 0x00, 0x00, 0x00, 0x00, 0x01, 0x01, 0x00, 0x00, 0x00,
  0x09, 0x00, 0x00, 0x00, 0x03, 0x00, 0x00, 0x00, 0x00, 0x00, 0x00, 0x00,
  0x08, 0x00, 0x00, 0x00, 0x07, 0x00, 0x00, 0x00, 0x01, 0x00, 0x00, 0x00,
  0x0c, 0x00, 0x00, 0x00, 0x01, 0x00, 0x00, 0x00, 0x00, 0x00, 0x00, 0x00,
  0x0d, 0x00, 0x00, 0x00, 0x94, 0x04, 0x00, 0x00, 0x3c, 0x04, 0x00, 0x00,
  0xe4, 0x03, 0x00, 0x00, 0xa4, 0x03, 0x00, 0x00, 0x68, 0x03, 0x00, 0x00,
  0x2c, 0x03, 0x00, 0x00, 0xd0, 0x02, 0x00, 0x00, 0x78, 0x02, 0x00, 0x00,
  0x2c, 0x02, 0x00, 0x00, 0x98, 0x01, 0x00, 0x00, 0xfc, 0x00, 0x00, 0x00,
  0x60, 0x00, 0x00, 0x00, 0x04, 0x00, 0x00, 0x00, 0xb6, 0xfb, 0xff, 0xff,
  0x00, 0x00, 0x00, 0x01, 0x14, 0x00, 0x00, 0x00, 0x1c, 0x00, 0x00, 0x00,
  0x1c, 0x00, 0x00, 0x00, 0x0d, 0x00, 0x00, 0x00, 0x34, 0x00, 0x00, 0x00,
  0x02, 0x00, 0x00, 0x00, 0xff, 0xff, 0xff, 0xff, 0x0a, 0x00, 0x00, 0x00,
  0xa0, 0xfb, 0xff, 0xff, 0x1b, 0x00, 0x00, 0x00, 0x53, 0x74, 0x61, 0x74,
  0x65, 0x66, 0x75, 0x6c, 0x50, 0x61, 0x72, 0x74, 0x69, 0x74, 0x69, 0x6f,
  0x6e, 0x65, 0x64, 0x43, 0x61, 0x6c, 0x6c, 0x5f, 0x31, 0x3a, 0x30, 0x00,
  0x02, 0x00, 0x00, 0x00, 0x01, 0x00, 0x00, 0x00, 0x0a, 0x00, 0x00, 0x00,
  0x0e, 0xfc, 0xff, 0xff, 0x00, 0x00, 0x00, 0x01, 0x14, 0x00, 0x00, 0x00,
  0x1c, 0x00, 0x00, 0x00, 0x1c, 0x00, 0x00, 0x00, 0x0c, 0x00, 0x00, 0x00,
  0x74, 0x00, 0x00, 0x00, 0x02, 0x00, 0x00, 0x00, 0xff, 0xff, 0xff, 0xff,
  0x08, 0x00, 0x00, 0x00, 0xf8, 0xfb, 0xff, 0xff, 0x58, 0x00, 0x00, 0x00,
  0x73, 0x65, 0x71, 0x75, 0x65, 0x6e, 0x74, 0x69, 0x61, 0x6c, 0x5f, 0x31,
  0x2f, 0x64, 0x65, 0x6e, 0x73, 0x65, 0x5f, 0x32, 0x5f, 0x31, 0x2f, 0x4d,
  0x61, 0x74, 0x4d, 0x75, 0x6c, 0x3b, 0x73, 0x65, 0x71, 0x75, 0x65, 0x6e,
  0x74, 0x69, 0x61, 0x6c, 0x5f, 0x31, 0x2f, 0x64, 0x65, 0x6e, 0x73, 0x65,
  0x5f, 0x32, 0x5f, 0x31, 0x2f, 0x52, 0x65, 0x6c, 0x75, 0x3b, 0x73, 0x65,
  0x71, 0x75, 0x65, 0x6e, 0x74, 0x69, 0x61, 0x6c, 0x5f, 0x31, 0x2f, 0x64,
  0x65, 0x6e, 0x73, 0x65, 0x5f, 0x32, 0x5f, 0x31, 0x2f, 0x42, 0x69, 0x61,
  0x73, 0x41, 0x64, 0x64, 0x00, 0x00, 0x00, 0x00, 0x02, 0x00, 0x00, 0x00,
  0x01, 0x00, 0x00, 0x00, 0x08, 0x00, 0x00, 0x00, 0xa6, 0xfc, 0xff, 0xff,
  0x00, 0x00, 0x00, 0x01, 0x14, 0x00, 0x00, 0x00, 0x1c, 0x00, 0x00, 0x00,
  0x1c, 0x00, 0x00, 0x00, 0x0b, 0x00, 0x00, 0x00, 0x74, 0x00, 0x00, 0x00,
  0x02, 0x00, 0x00, 0x00, 0xff, 0xff, 0xff, 0xff, 0x04, 0x00, 0x00, 0x00,
  0x90, 0xfc, 0xff, 0xff, 0x58, 0x00, 0x00, 0x00, 0x73, 0x65, 0x71, 0x75,
  0x65, 0x6e, 0x74, 0x69, 0x61, 0x6c, 0x5f, 0x31, 0x2f, 0x64, 0x65, 0x6e,
  0x73, 0x65, 0x5f, 0x31, 0x5f, 0x32, 0x2f, 0x4d, 0x61, 0x74, 0x4d, 0x75,
  0x6c, 0x3b, 0x73, 0x65, 0x71, 0x75, 0x65, 0x6e, 0x74, 0x69, 0x61, 0x6c,
  0x5f, 0x31, 0x2f, 0x64, 0x65, 0x6e, 0x73, 0x65, 0x5f, 0x31, 0x5f, 0x32,
  0x2f, 0x52, 0x65, 0x6c, 0x75, 0x3b, 0x73, 0x65, 0x71, 0x75, 0x65, 0x6e,
  0x74, 0x69, 0x61, 0x6c, 0x5f, 0x31, 0x2f, 0x64, 0x65, 0x6e, 0x73, 0x65,
  0x5f, 0x31, 0x5f, 0x32, 0x2f, 0x42, 0x69, 0x61, 0x73, 0x41, 0x64, 0x64,
  0x00, 0x00, 0x00, 0x00, 0x02, 0x00, 0x00, 0x00, 0x01, 0x00, 0x00, 0x00,
  0x04, 0x00, 0x00, 0x00, 0x3e, 0xfd, 0xff, 0xff, 0x00, 0x00, 0x00, 0x01,
  0x14, 0x00, 0x00, 0x00, 0x1c, 0x00, 0x00, 0x00, 0x1c, 0x00, 0x00, 0x00,
  0x0a, 0x00, 0x00, 0x00, 0x6c, 0x00, 0x00, 0x00, 0x02, 0x00, 0x00, 0x00,
  0xff, 0xff, 0xff, 0xff, 0x08, 0x00, 0x00, 0x00, 0x28, 0xfd, 0xff, 0xff,
  0x52, 0x00, 0x00, 0x00, 0x73, 0x65, 0x71, 0x75, 0x65, 0x6e, 0x74, 0x69,
  0x61, 0x6c, 0x5f, 0x31, 0x2f, 0x64, 0x65, 0x6e, 0x73, 0x65, 0x5f, 0x31,
  0x2f, 0x4d, 0x61, 0x74, 0x4d, 0x75, 0x6c, 0x3b, 0x73, 0x65, 0x71, 0x75,
  0x65, 0x6e, 0x74, 0x69, 0x61, 0x6c, 0x5f, 0x31, 0x2f, 0x64, 0x65, 0x6e,
  0x73, 0x65, 0x5f, 0x31, 0x2f, 0x52, 0x65, 0x6c, 0x75, 0x3b, 0x73, 0x65,
  0x71, 0x75, 0x65, 0x6e, 0x74, 0x69, 0x61, 0x6c, 0x5f, 0x31, 0x2f, 0x64,
  0x65, 0x6e, 0x73, 0x65, 0x5f, 0x31, 0x2f, 0x42, 0x69, 0x61, 0x73, 0x41,
  0x64, 0x64, 0x00, 0x00, 0x02, 0x00, 0x00, 0x00, 0x01, 0x00, 0x00, 0x00,
  0x08, 0x00, 0x00, 0x00, 0x22, 0xfe, 0xff, 0xff, 0x00, 0x00, 0x00, 0x01,
  0x10, 0x00, 0x00, 0x00, 0x10, 0x00, 0x00, 0x00, 0x09, 0x00, 0x00, 0x00,
  0x28, 0x00, 0x00, 0x00, 0xa8, 0xfd, 0xff, 0xff, 0x1b, 0x00, 0x00, 0x00,
  0x73, 0x65, 0x71, 0x75, 0x65, 0x6e, 0x74, 0x69, 0x61, 0x6c, 0x5f, 0x31,
  0x2f, 0x64, 0x65, 0x6e, 0x73, 0x65, 0x5f, 0x31, 0x2f, 0x4d, 0x61, 0x74,
  0x4d, 0x75, 0x6c, 0x00, 0x02, 0x00, 0x00, 0x00, 0x08, 0x00, 0x00, 0x00,
  0x0a, 0x00, 0x00, 0x00, 0x6a, 0xfe, 0xff, 0xff, 0x00, 0x00, 0x00, 0x01,
  0x10, 0x00, 0x00, 0x00, 0x10, 0x00, 0x00, 0x00, 0x08, 0x00, 0x00, 0x00,
  0x38, 0x00, 0x00, 0x00, 0xf0, 0xfd, 0xff, 0xff, 0x2b, 0x00, 0x00, 0x00,
  0x73, 0x65, 0x71, 0x75, 0x65, 0x6e, 0x74, 0x69, 0x61, 0x6c, 0x5f, 0x31,
  0x2f, 0x64, 0x65, 0x6e, 0x73, 0x65, 0x5f, 0x31, 0x2f, 0x42, 0x69, 0x61,
  0x73, 0x41, 0x64, 0x64, 0x2f, 0x52, 0x65, 0x61, 0x64, 0x56, 0x61, 0x72,
  0x69, 0x61, 0x62, 0x6c, 0x65, 0x4f, 0x70, 0x00, 0x01, 0x00, 0x00, 0x00,
  0x08, 0x00, 0x00, 0x00, 0xbe, 0xfe, 0xff, 0xff, 0x00, 0x00, 0x00, 0x01,
  0x10, 0x00, 0x00, 0x00, 0x10, 0x00, 0x00, 0x00, 0x07, 0x00, 0x00, 0x00,
  0x3c, 0x00, 0x00, 0x00, 0x44, 0xfe, 0xff, 0xff, 0x2d, 0x00, 0x00, 0x00,
  0x73, 0x65, 0x71, 0x75, 0x65, 0x6e, 0x74, 0x69, 0x61, 0x6c, 0x5f, 0x31,
  0x2f, 0x64, 0x65, 0x6e, 0x73, 0x65, 0x5f, 0x31, 0x5f, 0x32, 0x2f, 0x42,
  0x69, 0x61, 0x73, 0x41, 0x64, 0x64, 0x2f, 0x52, 0x65, 0x61, 0x64, 0x56,
  0x61, 0x72, 0x69, 0x61, 0x62, 0x6c, 0x65, 0x4f, 0x70, 0x00, 0x00, 0x00,
  0x01, 0x00, 0x00, 0x00, 0x04, 0x00, 0x00, 0x00, 0x16, 0xff, 0xff, 0xff,
  0x00, 0x00, 0x00, 0x01, 0x10, 0x00, 0x00, 0x00, 0x10, 0x00, 0x00, 0x00,
  0x06, 0x00, 0x00, 0x00, 0x1c, 0x00, 0x00, 0x00, 0x9c, 0xfe, 0xff, 0xff,
  0x0f, 0x00, 0x00, 0x00, 0x61, 0x72, 0x69, 0x74, 0x68, 0x2e, 0x63, 0x6f,
  0x6e, 0x73, 0x74, 0x61, 0x6e, 0x74, 0x34, 0x00, 0x01, 0x00, 0x00, 0x00,
  0x08, 0x00, 0x00, 0x00, 0x4e, 0xff, 0xff, 0xff, 0x00, 0x00, 0x00, 0x01,
  0x10, 0x00, 0x00, 0x00, 0x10, 0x00, 0x00, 0x00, 0x05, 0x00, 0x00, 0x00,
  0x1c, 0x00, 0x00, 0x00, 0xd4, 0xfe, 0xff, 0xff, 0x0f, 0x00, 0x00, 0x00,
  0x61, 0x72, 0x69, 0x74, 0x68, 0x2e, 0x63, 0x6f, 0x6e, 0x73, 0x74, 0x61,
  0x6e, 0x74, 0x33, 0x00, 0x01, 0x00, 0x00, 0x00, 0x0a, 0x00, 0x00, 0x00,
  0x86, 0xff, 0xff, 0xff, 0x00, 0x00, 0x00, 0x01, 0x10, 0x00, 0x00, 0x00,
  0x10, 0x00, 0x00, 0x00, 0x04, 0x00, 0x00, 0x00, 0x1c, 0x00, 0x00, 0x00,
  0x0c, 0xff, 0xff, 0xff, 0x0f, 0x00, 0x00, 0x00, 0x61, 0x72, 0x69, 0x74,
  0x68, 0x2e, 0x63, 0x6f, 0x6e, 0x73, 0x74, 0x61, 0x6e, 0x74, 0x32, 0x00,
  0x02, 0x00, 0x00, 0x00, 0x04, 0x00, 0x00, 0x00, 0x08, 0x00, 0x00, 0x00,
  0xc2, 0xff, 0xff, 0xff, 0x00, 0x00, 0x00, 0x01, 0x10, 0x00, 0x00, 0x00,
  0x10, 0x00, 0x00, 0x00, 0x03, 0x00, 0x00, 0x00, 0x1c, 0x00, 0x00, 0x00,
  0x48, 0xff, 0xff, 0xff, 0x0f, 0x00, 0x00, 0x00, 0x61, 0x72, 0x69, 0x74,
  0x68, 0x2e, 0x63, 0x6f, 0x6e, 0x73, 0x74, 0x61, 0x6e, 0x74, 0x31, 0x00,
  0x02, 0x00, 0x00, 0x00, 0x08, 0x00, 0x00, 0x00, 0x04, 0x00, 0x00, 0x00,
  0x00, 0x00, 0x16, 0x00, 0x18, 0x00, 0x14, 0x00, 0x00, 0x00, 0x10, 0x00,
  0x0c, 0x00, 0x08, 0x00, 0x00, 0x00, 0x00, 0x00, 0x00, 0x00, 0x07, 0x00,
  0x16, 0x00, 0x00, 0x00, 0x00, 0x00, 0x00, 0x01, 0x10, 0x00, 0x00, 0x00,
  0x10, 0x00, 0x00, 0x00, 0x02, 0x00, 0x00, 0x00, 0x1c, 0x00, 0x00, 0x00,
  0x9c, 0xff, 0xff, 0xff, 0x0e, 0x00, 0x00, 0x00, 0x61, 0x72, 0x69, 0x74,
  0x68, 0x2e, 0x63, 0x6f, 0x6e, 0x73, 0x74, 0x61, 0x6e, 0x74, 0x00, 0x00,
  0x02, 0x00, 0x00, 0x00, 0x0a, 0x00, 0x00, 0x00, 0x08, 0x00, 0x00, 0x00,
  0x00, 0x00, 0x16, 0x00, 0x1c, 0x00, 0x18, 0x00, 0x00, 0x00, 0x14, 0x00,
  0x10, 0x00, 0x0c, 0x00, 0x00, 0x00, 0x00, 0x00, 0x08, 0x00, 0x07, 0x00,
  0x16, 0x00, 0x00, 0x00, 0x00, 0x00, 0x00, 0x01, 0x14, 0x00, 0x00, 0x00,
  0x20, 0x00, 0x00, 0x00, 0x20, 0x00, 0x00, 0x00, 0x01, 0x00, 0x00, 0x00,
  0x3c, 0x00, 0x00, 0x00, 0x02, 0x00, 0x00, 0x00, 0xff, 0xff, 0xff, 0xff,
  0x0a, 0x00, 0x00, 0x00, 0x04, 0x00, 0x04, 0x00, 0x04, 0x00, 0x00, 0x00,
  0x1e, 0x00, 0x00, 0x00, 0x73, 0x65, 0x72, 0x76, 0x69, 0x6e, 0x67, 0x5f,
  0x64, 0x65, 0x66, 0x61, 0x75, 0x6c, 0x74, 0x5f, 0x6b, 0x65, 0x72, 0x61,
  0x73, 0x5f, 0x74, 0x65, 0x6e, 0x73, 0x6f, 0x72, 0x3a, 0x30, 0x00, 0x00,
  0x02, 0x00, 0x00, 0x00, 0x01, 0x00, 0x00, 0x00, 0x0a, 0x00, 0x00, 0x00,
  0x01, 0x00, 0x00, 0x00, 0x10, 0x00, 0x00, 0x00, 0x0c, 0x00, 0x0c, 0x00,
  0x0b, 0x00, 0x00, 0x00, 0x00, 0x00, 0x04, 0x00, 0x0c, 0x00, 0x00, 0x00,
  0x09, 0x00, 0x00, 0x00, 0x00, 0x00, 0x00, 0x09
};
unsigned int smartiot_model_tflite_len = 3284;
